{
  "version": "1.0",
  "truncation": null,
  "padding": null,
  "added_tokens": [
    {
      "id": 0,
      "content": "[UNK]",
      "single_word": false,
      "lstrip": false,
      "rstrip": false,
      "normalized": false,
      "special": true
    },
    {
      "id": 1,
      "content": "[CLS]",
      "single_word": false,
      "lstrip": false,
      "rstrip": false,
      "normalized": false,
      "special": true
    },
    {
      "id": 2,
      "content": "[SEP]",
      "single_word": false,
      "lstrip": false,
      "rstrip": false,
      "normalized": false,
      "special": true
    },
    {
      "id": 3,
      "content": "[PAD]",
      "single_word": false,
      "lstrip": false,
      "rstrip": false,
      "normalized": false,
      "special": true
    },
    {
      "id": 4,
      "content": "[MASK]",
      "single_word": false,
      "lstrip": false,
      "rstrip": false,
      "normalized": false,
      "special": true
    }
  ],
  "normalizer": null,
  "pre_tokenizer": {
    "type": "Whitespace"
  },
  "post_processor": null,
  "decoder": null,
  "model": {
    "type": "BPE",
    "dropout": null,
    "unk_token": "[UNK]",
    "continuing_subword_prefix": null,
    "end_of_word_suffix": null,
    "fuse_unk": false,
    "byte_fallback": false,
    "ignore_merges": false,
    "vocab": {
      "[UNK]": 0,
      "[CLS]": 1,
      "[SEP]": 2,
      "[PAD]": 3,
      "[MASK]": 4,
      "!": 5,
      "\"": 6,
      "'": 7,
      "(": 8,
      ")": 9,
      ",": 10,
      "-": 11,
      ".": 12,
      ":": 13,
      ";": 14,
      "?": 15,
      "A": 16,
      "B": 17,
      "C": 18,
      "D": 19,
      "E": 20,
      "F": 21,
      "G": 22,
      "H": 23,
      "I": 24,
      "J": 25,
      "L": 26,
      "M": 27,
      "N": 28,
      "O": 29,
      "P": 30,
      "R": 31,
      "S": 32,
      "T": 33,
      "U": 34,
      "V": 35,
      "W": 36,
      "Y": 37,
      "_": 38,
      "a": 39,
      "b": 40,
      "c": 41,
      "d": 42,
      "e": 43,
      "f": 44,
      "g": 45,
      "h": 46,
      "i": 47,
      "j": 48,
      "k": 49,
      "l": 50,
      "m": 51,
      "n": 52,
      "o": 53,
      "p": 54,
      "q": 55,
      "r": 56,
      "s": 57,
      "t": 58,
      "u": 59,
      "v": 60,
      "w": 61,
      "x": 62,
      "y": 63,
      "z": 64,
      "he": 65,
      "in": 66,
      "the": 67,
      "ha": 68,
      "ou": 69,
      "re": 70,
      "an": 71,
      "on": 72,
      "it": 73,
      "is": 74,
      "ed": 75,
      "as": 76,
      "to": 77,
      "en": 78,
      "ing": 79,
      "of": 80,
      "er": 81,
      "st": 82,
      "--": 83,
      "at": 84,
      "and": 85,
      "se": 86,
      "or": 87,
      "le": 88,
      "be": 89,
      "ar": 90,
      "me": 91,
      "was": 92,
      "hat": 93,
      "his": 94,
      "ll": 95,
      "ow": 96,
      "ac": 97,
      "ve": 98,
      "ic": 99,
      "im": 100,
      "that": 101,
      "ur": 102,
      "had": 103,
      "ly": 104,
      "gh": 105,
      "de": 106,
      "th": 107,
      "es": 108,
      "my": 109,
      "ra": 110,
      "him": 111,
      "ld": 112,
      "ay": 113,
      "id": 114,
      "ain": 115,
      "ro": 116,
      "ut": 117,
      "ab": 118,
      "al": 119,
      "wit": 120,
      "one": 121,
      "ir": 122,
      "li": 123,
      "nd": 124,
      "with": 125,
      "ent": 126,
      "ion": 127,
      "no": 128,
      "rou": 129,
      "te": 130,
      "ould": 131,
      "su": 132,
      "you": 133,
      "fe": 134,
      "so": 135,
      "ev": 136,
      "ght": 137,
      "all": 138,
      "ke": 139,
      "om": 140,
      "out": 141,
      "urn": 142,
      "have": 143,
      "ch": 144,
      "for": 145,
      "rs": 146,
      "ter": 147,
      "up": 148,
      "we": 149,
      "ack": 150,
      ".\"": 151,
      "ure": 152,
      "her": 153,
      "ad": 154,
      "ce": 155,
      "lf": 156,
      "lo": 157,
      "ne": 158,
      "pain": 159,
      "she": 160,
      "Mrs": 161,
      "The": 162,
      "burn": 163,
      "ct": 164,
      "sa": 165,
      "own": 166,
      "paint": 167,
      "Gis": 168,
      "sh": 169,
      "trou": 170,
      "ind": 171,
      "Gisburn": 172,
      "Strou": 173,
      "qu": 174,
      "our": 175,
      "self": 176,
      "Stroud": 177,
      "mo": 178,
      "wh": 179,
      "been": 180,
      "ict": 181,
      "not": 182,
      "pict": 183,
      "ti": 184,
      "ust": 185,
      "red": 186,
      "ever": 187,
      "picture": 188,
      "au": 189,
      "us": 190,
      "whe": 191,
      "He": 192,
      "It": 193,
      "Jack": 194,
      "ag": 195,
      "but": 196,
      "fac": 197,
      "ked": 198,
      "mi": 199,
      "now": 200,
      "po": 201,
      "say": 202,
      "ous": 203,
      "ation": 204,
      "see": 205,
      "by": 206,
      "could": 207,
      "dis": 208,
      "way": 209,
      "said": 210,
      "et": 211,
      "go": 212,
      "ive": 213,
      "pe": 214,
      "ri": 215,
      "ru": 216,
      "thing": 217,
      ",\"": 218,
      "am": 219,
      "co": 220,
      "don": 221,
      "fo": 222,
      "if": 223,
      "just": 224,
      "las": 225,
      "od": 226,
      "would": 227,
      "ther": 228,
      "loo": 229,
      "did": 230,
      "ex": 231,
      "iv": 232,
      "man": 233,
      "pl": 234,
      "pp": 235,
      "ong": 236,
      "ity": 237,
      "able": 238,
      "about": 239,
      "when": 240,
      "?\"": 241,
      "But": 242,
      "ey": 243,
      "est": 244,
      "gl": 245,
      "gre": 246,
      "king": 247,
      "pre": 248,
      "wor": 249,
      "only": 250,
      "bec": 251,
      "ard": 252,
      "ick": 253,
      "thou": 254,
      "And": 255,
      "She": 256,
      "are": 257,
      "che": 258,
      "cur": 259,
      "do": 260,
      "down": 261,
      "ell": 262,
      "ig": 263,
      "know": 264,
      "nt": 265,
      "rac": 266,
      "sur": 267,
      "ting": 268,
      "tra": 269,
      "ul": 270,
      "und": 271,
      "ver": 272,
      "what": 273,
      "they": 274,
      "ant": 275,
      "end": 276,
      "art": 277,
      "throu": 278,
      "ess": 279,
      "himself": 280,
      "room": 281,
      "some": 282,
      "were": 283,
      "painting": 284,
      "who": 285,
      "under": 286,
      "through": 287,
      "af": 288,
      "back": 289,
      "cha": 290,
      "con": 291,
      "el": 292,
      "fa": 293,
      "ft": 294,
      "ho": 295,
      "hou": 296,
      "il": 297,
      "ious": 298,
      "je": 299,
      "kne": 300,
      "lit": 301,
      "med": 302,
      "pr": 303,
      "ps": 304,
      "ple": 305,
      "ry": 306,
      "ta": 307,
      "un": 308,
      "there": 309,
      "hand": 310,
      "ance": 311,
      "ite": 312,
      "ate": 313,
      "bet": 314,
      "like": 315,
      "fact": 316,
      "couldn": 317,
      "didn": 318,
      "eyes": 319,
      "thought": 320,
      "Rick": 321,
      "ble": 322,
      "can": 323,
      "fro": 324,
      "la": 325,
      "lt": 326,
      "ling": 327,
      "ove": 328,
      "per": 329,
      "put": 330,
      "sent": 331,
      "um": 332,
      "wi": 333,
      "wing": 334,
      "wat": 335,
      "ham": 336,
      "rest": 337,
      "any": 338,
      "too": 339,
      "ath": 340,
      "light": 341,
      "such": 342,
      "felt": 343,
      "ally": 344,
      "show": 345,
      "ourse": 346,
      "ause": 347,
      "again": 348,
      "fore": 349,
      "because": 350,
      "knew": 351,
      "Rickham": 352,
      "from": 353,
      "!\"": 354,
      "Gr": 355,
      "Well": 356,
      "br": 357,
      "bje": 358,
      "com": 359,
      "course": 360,
      "dra": 361,
      "ek": 362,
      "eas": 363,
      "fou": 364,
      "fir": 365,
      "get": 366,
      "giv": 367,
      "how": 368,
      "ied": 369,
      "ill": 370,
      "lau": 371,
      "min": 372,
      "pro": 373,
      "sp": 374,
      "ss": 375,
      "sit": 376,
      "sto": 377,
      "swe": 378,
      "tle": 379,
      "went": 380,
      "wom": 381,
      "want": 382,
      "hed": 383,
      "int": 384,
      "into": 385,
      "their": 386,
      "anc": 387,
      "told": 388,
      "stra": 389,
      "stro": 390,
      "arm": 391,
      "ars": 392,
      "dead": 393,
      "rather": 394,
      "alway": 395,
      "key": 396,
      "ching": 397,
      "ween": 398,
      "cted": 399,
      "painted": 400,
      "indle": 401,
      "pictures": 402,
      "face": 403,
      "ations": 404,
      "ried": 405,
      "donkey": 406,
      "last": 407,
      "work": 408,
      "after": 409,
      "little": 410,
      "between": 411,
      "Grindle": 412,
      "bject": 413,
      "found": 414,
      "first": 415,
      "given": 416,
      "always": 417,
      "Of": 418,
      "Oh": 419,
      "On": 420,
      "Yes": 421,
      "ade": 422,
      "cked": 423,
      "dd": 424,
      "day": 425,
      "done": 426,
      "fra": 427,
      "ide": 428,
      "lat": 429,
      "lic": 430,
      "ment": 431,
      "pu": 432,
      "pas": 433,
      "por": 434,
      "rof": 435,
      "sim": 436,
      "turn": 437,
      "won": 438,
      "head": 439,
      "ink": 440,
      "happ": 441,
      "ough": 442,
      "its": 443,
      "enough": 444,
      "stand": 445,
      "ating": 446,
      "beg": 447,
      "llow": 448,
      "dest": 449,
      "note": 450,
      "tell": 451,
      "ket": 452,
      "near": 453,
      "saw": 454,
      "should": 455,
      "more": 456,
      "till": 457,
      "where": 458,
      "might": 459,
      "good": 460,
      "looked": 461,
      "trait": 462,
      "house": 463,
      "pris": 464,
      "wife": 465,
      "watching": 466,
      "portrait": 467,
      "turned": 468,
      "happen": 469,
      "Crof": 470,
      "His": 471,
      "Th": 472,
      "Whe": 473,
      "ap": 474,
      "bre": 475,
      "ck": 476,
      "cou": 477,
      "cre": 478,
      "cor": 479,
      "cus": 480,
      "ef": 481,
      "ep": 482,
      "fl": 483,
      "gg": 484,
      "hind": 485,
      "ie": 486,
      "io": 487,
      "ight": 488,
      "ken": 489,
      "lve": 490,
      "long": 491,
      "mb": 492,
      "mar": 493,
      "never": 494,
      "ness": 495,
      "old": 496,
      "object": 497,
      "pa": 498,
      "pt": 499,
      "pan": 500,
      "sing": 501,
      "sat": 502,
      "smi": 503,
      "sket": 504,
      "ten": 505,
      "tain": 506,
      "ved": 507,
      "ye": 508,
      "here": 509,
      "hear": 510,
      "inte": 511,
      "ince": 512,
      "them": 513,
      "hav": 514,
      "half": 515,
      "iss": 516,
      "tory": 517,
      "ene": 518,
      "off": 519,
      "ers": 520,
      "still": 521,
      "att": 522,
      "ated": 523,
      "set": 524,
      "let": 525,
      "being": 526,
      "behind": 527,
      "ich": 528,
      "dear": 529,
      "thre": 530,
      "think": 531,
      "myself": 532,
      "above": 533,
      "life": 534,
      "your": 535,
      "fect": 536,
      "even": 537,
      "nex": 538,
      "modest": 539,
      "moved": 540,
      "age": 541,
      "poor": 542,
      "point": 543,
      "got": 544,
      "ively": 545,
      "pected": 546,
      "looking": 547,
      "plac": 548,
      "glor": 549,
      "great": 550,
      "race": 551,
      "surpris": 552,
      "chair": 553,
      "fail": 554,
      "laid": 555,
      "resting": 556,
      "showy": 557,
      "eks": 558,
      "sitter": 559,
      "women": 560,
      "began": 561,
      "Croft": 562,
      "Thwing": 563,
      "When": 564,
      "satis": 565,
      "sketch": 566,
      "interesting": 567,
      "\"--": 568,
      "Be": 569,
      "For": 570,
      "Her": 571,
      "If": 572,
      "Jove": 573,
      "My": 574,
      "Miss": 575,
      "Po": 576,
      "Riv": 577,
      "To": 578,
      "That": 579,
      "You": 580,
      "ame": 581,
      "ave": 582,
      "air": 583,
      "away": 584,
      "bed": 585,
      "band": 586,
      "bal": 587,
      "bene": 588,
      "cr": 589,
      "cing": 590,
      "cle": 591,
      "cir": 592,
      "cent": 593,
      "call": 594,
      "clo": 595,
      "cig": 596,
      "cating": 597,
      "ded": 598,
      "der": 599,
      "fle": 600,
      "ful": 601,
      "gar": 602,
      "gra": 603,
      "give": 604,
      "hon": 605,
      "hus": 606,
      "ire": 607,
      "ier": 608,
      "igh": 609,
      "ies": 610,
      "kind": 611,
      "lu": 612,
      "lin": 613,
      "led": 614,
      "land": 615,
      "lay": 616,
      "mu": 617,
      "must": 618,
      "made": 619,
      "ng": 620,
      "ner": 621,
      "oc": 622,
      "other": 623,
      "over": 624,
      "ople": 625,
      "ping": 626,
      "pie": 627,
      "rd": 628,
      "row": 629,
      "sen": 630,
      "sity": 631,
      "since": 632,
      "tr": 633,
      "ton": 634,
      "this": 635,
      "tic": 636,
      "table": 637,
      "ucked": 638,
      "vas": 639,
      "ward": 640,
      "heard": 641,
      "inst": 642,
      "then": 643,
      "hard": 644,
      "reas": 645,
      "rent": 646,
      "really": 647,
      "ang": 648,
      "once": 649,
      "itu": 650,
      "ities": 651,
      "ish": 652,
      "ised": 653,
      "enly": 654,
      "str": 655,
      "--\"": 656,
      "seen": 657,
      "secre": 658,
      "left": 659,
      "before": 660,
      "history": 661,
      "ice": 662,
      "ury": 663,
      "depre": 664,
      "delic": 665,
      "rose": 666,
      "ute": 667,
      "ality": 668,
      "iron": 669,
      "lift": 670,
      "lips": 671,
      "without": 672,
      "tel": 673,
      "teen": 674,
      "sun": 675,
      "chucked": 676,
      "herself": 677,
      "shed": 678,
      "There": 679,
      "ction": 680,
      "quest": 681,
      "most": 682,
      "why": 683,
      "time": 684,
      "every": 685,
      "seemed": 686,
      "people": 687,
      "things": 688,
      "come": 689,
      "follow": 690,
      "wouldn": 691,
      "look": 692,
      "manage": 693,
      "plain": 694,
      "pped": 695,
      "glanc": 696,
      "ched": 697,
      "curtain": 698,
      "ign": 699,
      "rooms": 700,
      "taken": 701,
      "ung": 702,
      "handsome": 703,
      "drawing": 704,
      "easel": 705,
      "laugh": 706,
      "mine": 707,
      "stood": 708,
      "stroke": 709,
      "foundations": 710,
      "Only": 711,
      "ddenly": 712,
      "frame": 713,
      "pushed": 714,
      "simp": 715,
      "wonder": 716,
      "happened": 717,
      "count": 718,
      "gged": 719,
      "married": 720,
      "smile": 721,
      "years": 722,
      "having": 723,
      "modesty": 724,
      "glory": 725,
      "surprise": 726,
      "sitters": 727,
      "Poor": 728,
      "Rivier": 729,
      "beneath": 730,
      "called": 731,
      "honour": 732,
      "husband": 733,
      "piece": 734,
      "secret": 735,
      "deprecating": 736,
      "delicate": 737,
      "question": 738,
      "glanced": 739,
      "curtains": 740,
      "Riviera": 741,
      "Ah": 742,
      "By": 743,
      "Car": 744,
      "Du": 745,
      "Don": 746,
      "Mr": 747,
      "Mon": 748,
      "Never": 749,
      "Vic": 750,
      "Wh": 751,
      "What": 752,
      "_was": 753,
      "_that": 754,
      "_rose": 755,
      "ak": 756,
      "az": 757,
      "aut": 758,
      "ared": 759,
      "ather": 760,
      "app": 761,
      "aking": 762,
      "bu": 763,
      "bor": 764,
      "bar": 765,
      "brou": 766,
      "bru": 767,
      "blic": 768,
      "cu": 769,
      "cure": 770,
      "cau": 771,
      "care": 772,
      "cul": 773,
      "cry": 774,
      "cla": 775,
      "du": 776,
      "dre": 777,
      "dic": 778,
      "dim": 779,
      "dain": 780,
      "dro": 781,
      "dab": 782,
      "dity": 783,
      "died": 784,
      "equ": 785,
      "ered": 786,
      "eigh": 787,
      "fon": 788,
      "fit": 789,
      "fas": 790,
      "fur": 791,
      "fid": 792,
      "flas": 793,
      "fied": 794,
      "gen": 795,
      "gro": 796,
      "ghed": 797,
      "gment": 798,
      "hion": 799,
      "hum": 800,
      "hung": 801,
      "ible": 802,
      "lour": 803,
      "late": 804,
      "mp": 805,
      "ming": 806,
      "mur": 807,
      "mom": 808,
      "mour": 809,
      "ned": 810,
      "nic": 811,
      "oh": 812,
      "ose": 813,
      "ome": 814,
      "pat": 815,
      "par": 816,
      "pal": 817,
      "pri": 818,
      "ras": 819,
      "rid": 820,
      "rich": 821,
      "sm": 822,
      "sw": 823,
      "sha": 824,
      "sis": 825,
      "ser": 826,
      "sse": 827,
      "spe": 828,
      "sil": 829,
      "slight": 830,
      "scor": 831,
      "sign": 832,
      "ts": 833,
      "tu": 834,
      "tw": 835,
      "ty": 836,
      "tha": 837,
      "tone": 838,
      "tri": 839,
      "tru": 840,
      "trac": 841,
      "twent": 842,
      "tried": 843,
      "usu": 844,
      "unex": 845,
      "vis": 846,
      "val": 847,
      "vind": 848,
      "vous": 849,
      "vance": 850,
      "voc": 851,
      "win": 852,
      "wall": 853,
      "yed": 854,
      "yet": 855,
      "heart": 856,
      "height": 857,
      "ining": 858,
      "inev": 859,
      "inct": 860,
      "oured": 861,
      "ouched": 862,
      "rem": 863,
      "res": 864,
      "reme": 865,
      "reso": 866,
      "ream": 867,
      "refle": 868,
      "answe": 869,
      "ist": 870,
      "isite": 871,
      "ished": 872,
      "asked": 873,
      "tor": 874,
      "stu": 875,
      "stay": 876,
      "stru": 877,
      "stess": 878,
      "stair": 879,
      "stream": 880,
      "ors": 881,
      "leas": 882,
      "bes": 883,
      "bear": 884,
      "beli": 885,
      "beard": 886,
      "beaut": 887,
      "ary": 888,
      "met": 889,
      "mere": 890,
      "mest": 891,
      "lled": 892,
      "vered": 893,
      "icul": 894,
      "icated": 895,
      "imin": 896,
      "urb": 897,
      "des": 898,
      "degre": 899,
      "deep": 900,
      "those": 901,
      "esn": 902,
      "ral": 903,
      "raft": 904,
      "ross": 905,
      "absur": 906,
      "abdic": 907,
      "alone": 908,
      "alous": 909,
      "alive": 910,
      "alities": 911,
      "oney": 912,
      "irre": 913,
      "liked": 914,
      "ently": 915,
      "ention": 916,
      "round": 917,
      "tech": 918,
      "tears": 919,
      "sub": 920,
      "subject": 921,
      "suddenly": 922,
      "few": 923,
      "fellow": 924,
      "sol": 925,
      "eved": 926,
      "terrace": 927,
      "weeks": 928,
      "added": 929,
      "painter": 930,
      "Then": 931,
      "shru": 932,
      "que": 933,
      "quite": 934,
      "quality": 935,
      "quisite": 936,
      "Strouds": 937,
      "white": 938,
      "which": 939,
      "tired": 940,
      "everlas": 941,
      "ago": 942,
      "mia": 943,
      "posing": 944,
      "says": 945,
      "displ": 946,
      "dissatis": 947,
      "disdain": 948,
      "etly": 949,
      "among": 950,
      "cover": 951,
      "colour": 952,
      "covered": 953,
      "exquisite": 954,
      "mantel": 955,
      "ongest": 956,
      "eye": 957,
      "glad": 958,
      "grew": 959,
      "present": 960,
      "word": 961,
      "became": 962,
      "icks": 963,
      "though": 964,
      "arent": 965,
      "cheeks": 966,
      "curio": 967,
      "current": 968,
      "doesn": 969,
      "traps": 970,
      "whole": 971,
      "understand": 972,
      "cont": 973,
      "confid": 974,
      "else": 975,
      "fami": 976,
      "hostess": 977,
      "jealous": 978,
      "medi": 979,
      "ry_": 980,
      "better": 981,
      "faction": 982,
      "canvas": 983,
      "anything": 984,
      "athing": 985,
      "brown": 986,
      "coming": 987,
      "dragged": 988,
      "ease": 989,
      "getting": 990,
      "laughed": 991,
      "spite": 992,
      "woman": 993,
      "wanted": 994,
      "ddling": 995,
      "days": 996,
      "fragment": 997,
      "idea": 998,
      "later": 999
    },
    "merges": [
      [
        "h",
        "e"
      ],
      [
        "i",
        "n"
      ],
      [
        "t",
        "he"
      ],
      [
        "h",
        "a"
      ],
      [
        "o",
        "u"
      ],
      [
        "r",
        "e"
      ],
      [
        "a",
        "n"
      ],
      [
        "o",
        "n"
      ],
      [
        "i",
        "t"
      ],
      [
        "i",
        "s"
      ],
      [
        "e",
        "d"
      ],
      [
        "a",
        "s"
      ],
      [
        "t",
        "o"
      ],
      [
        "e",
        "n"
      ],
      [
        "in",
        "g"
      ],
      [
        "o",
        "f"
      ],
      [
        "e",
        "r"
      ],
      [
        "s",
        "t"
      ],
      [
        "-",
        "-"
      ],
      [
        "a",
        "t"
      ],
      [
        "an",
        "d"
      ],
      [
        "s",
        "e"
      ],
      [
        "o",
        "r"
      ],
      [
        "l",
        "e"
      ],
      [
        "b",
        "e"
      ],
      [
        "a",
        "r"
      ],
      [
        "m",
        "e"
      ],
      [
        "w",
        "as"
      ],
      [
        "ha",
        "t"
      ],
      [
        "h",
        "is"
      ],
      [
        "l",
        "l"
      ],
      [
        "o",
        "w"
      ],
      [
        "a",
        "c"
      ],
      [
        "v",
        "e"
      ],
      [
        "i",
        "c"
      ],
      [
        "i",
        "m"
      ],
      [
        "t",
        "hat"
      ],
      [
        "u",
        "r"
      ],
      [
        "ha",
        "d"
      ],
      [
        "l",
        "y"
      ],
      [
        "g",
        "h"
      ],
      [
        "d",
        "e"
      ],
      [
        "t",
        "h"
      ],
      [
        "e",
        "s"
      ],
      [
        "m",
        "y"
      ],
      [
        "r",
        "a"
      ],
      [
        "h",
        "im"
      ],
      [
        "l",
        "d"
      ],
      [
        "a",
        "y"
      ],
      [
        "i",
        "d"
      ],
      [
        "a",
        "in"
      ],
      [
        "r",
        "o"
      ],
      [
        "u",
        "t"
      ],
      [
        "a",
        "b"
      ],
      [
        "a",
        "l"
      ],
      [
        "w",
        "it"
      ],
      [
        "on",
        "e"
      ],
      [
        "i",
        "r"
      ],
      [
        "l",
        "i"
      ],
      [
        "n",
        "d"
      ],
      [
        "wit",
        "h"
      ],
      [
        "en",
        "t"
      ],
      [
        "i",
        "on"
      ],
      [
        "n",
        "o"
      ],
      [
        "r",
        "ou"
      ],
      [
        "t",
        "e"
      ],
      [
        "ou",
        "ld"
      ],
      [
        "s",
        "u"
      ],
      [
        "y",
        "ou"
      ],
      [
        "f",
        "e"
      ],
      [
        "s",
        "o"
      ],
      [
        "e",
        "v"
      ],
      [
        "gh",
        "t"
      ],
      [
        "a",
        "ll"
      ],
      [
        "k",
        "e"
      ],
      [
        "o",
        "m"
      ],
      [
        "ou",
        "t"
      ],
      [
        "ur",
        "n"
      ],
      [
        "ha",
        "ve"
      ],
      [
        "c",
        "h"
      ],
      [
        "f",
        "or"
      ],
      [
        "r",
        "s"
      ],
      [
        "t",
        "er"
      ],
      [
        "u",
        "p"
      ],
      [
        "w",
        "e"
      ],
      [
        "ac",
        "k"
      ],
      [
        ".",
        "\""
      ],
      [
        "u",
        "re"
      ],
      [
        "he",
        "r"
      ],
      [
        "a",
        "d"
      ],
      [
        "c",
        "e"
      ],
      [
        "l",
        "f"
      ],
      [
        "l",
        "o"
      ],
      [
        "n",
        "e"
      ],
      [
        "p",
        "ain"
      ],
      [
        "s",
        "he"
      ],
      [
        "M",
        "rs"
      ],
      [
        "T",
        "he"
      ],
      [
        "b",
        "urn"
      ],
      [
        "c",
        "t"
      ],
      [
        "s",
        "a"
      ],
      [
        "ow",
        "n"
      ],
      [
        "pain",
        "t"
      ],
      [
        "G",
        "is"
      ],
      [
        "s",
        "h"
      ],
      [
        "t",
        "rou"
      ],
      [
        "in",
        "d"
      ],
      [
        "Gis",
        "burn"
      ],
      [
        "S",
        "trou"
      ],
      [
        "q",
        "u"
      ],
      [
        "ou",
        "r"
      ],
      [
        "se",
        "lf"
      ],
      [
        "Strou",
        "d"
      ],
      [
        "m",
        "o"
      ],
      [
        "w",
        "h"
      ],
      [
        "be",
        "en"
      ],
      [
        "ic",
        "t"
      ],
      [
        "no",
        "t"
      ],
      [
        "p",
        "ict"
      ],
      [
        "t",
        "i"
      ],
      [
        "u",
        "st"
      ],
      [
        "re",
        "d"
      ],
      [
        "ev",
        "er"
      ],
      [
        "pict",
        "ure"
      ],
      [
        "a",
        "u"
      ],
      [
        "u",
        "s"
      ],
      [
        "w",
        "he"
      ],
      [
        "H",
        "e"
      ],
      [
        "I",
        "t"
      ],
      [
        "J",
        "ack"
      ],
      [
        "a",
        "g"
      ],
      [
        "b",
        "ut"
      ],
      [
        "f",
        "ac"
      ],
      [
        "k",
        "ed"
      ],
      [
        "m",
        "i"
      ],
      [
        "n",
        "ow"
      ],
      [
        "p",
        "o"
      ],
      [
        "s",
        "ay"
      ],
      [
        "ou",
        "s"
      ],
      [
        "at",
        "ion"
      ],
      [
        "se",
        "e"
      ],
      [
        "b",
        "y"
      ],
      [
        "c",
        "ould"
      ],
      [
        "d",
        "is"
      ],
      [
        "w",
        "ay"
      ],
      [
        "sa",
        "id"
      ],
      [
        "e",
        "t"
      ],
      [
        "g",
        "o"
      ],
      [
        "i",
        "ve"
      ],
      [
        "p",
        "e"
      ],
      [
        "r",
        "i"
      ],
      [
        "r",
        "u"
      ],
      [
        "th",
        "ing"
      ],
      [
        ",",
        "\""
      ],
      [
        "a",
        "m"
      ],
      [
        "c",
        "o"
      ],
      [
        "d",
        "on"
      ],
      [
        "f",
        "o"
      ],
      [
        "i",
        "f"
      ],
      [
        "j",
        "ust"
      ],
      [
        "l",
        "as"
      ],
      [
        "o",
        "d"
      ],
      [
        "w",
        "ould"
      ],
      [
        "the",
        "r"
      ],
      [
        "lo",
        "o"
      ],
      [
        "d",
        "id"
      ],
      [
        "e",
        "x"
      ],
      [
        "i",
        "v"
      ],
      [
        "m",
        "an"
      ],
      [
        "p",
        "l"
      ],
      [
        "p",
        "p"
      ],
      [
        "on",
        "g"
      ],
      [
        "it",
        "y"
      ],
      [
        "ab",
        "le"
      ],
      [
        "ab",
        "out"
      ],
      [
        "whe",
        "n"
      ],
      [
        "?",
        "\""
      ],
      [
        "B",
        "ut"
      ],
      [
        "e",
        "y"
      ],
      [
        "e",
        "st"
      ],
      [
        "g",
        "l"
      ],
      [
        "g",
        "re"
      ],
      [
        "k",
        "ing"
      ],
      [
        "p",
        "re"
      ],
      [
        "w",
        "or"
      ],
      [
        "on",
        "ly"
      ],
      [
        "be",
        "c"
      ],
      [
        "ar",
        "d"
      ],
      [
        "ic",
        "k"
      ],
      [
        "th",
        "ou"
      ],
      [
        "A",
        "nd"
      ],
      [
        "S",
        "he"
      ],
      [
        "a",
        "re"
      ],
      [
        "c",
        "he"
      ],
      [
        "c",
        "ur"
      ],
      [
        "d",
        "o"
      ],
      [
        "d",
        "own"
      ],
      [
        "e",
        "ll"
      ],
      [
        "i",
        "g"
      ],
      [
        "k",
        "now"
      ],
      [
        "n",
        "t"
      ],
      [
        "r",
        "ac"
      ],
      [
        "s",
        "ur"
      ],
      [
        "t",
        "ing"
      ],
      [
        "t",
        "ra"
      ],
      [
        "u",
        "l"
      ],
      [
        "u",
        "nd"
      ],
      [
        "v",
        "er"
      ],
      [
        "w",
        "hat"
      ],
      [
        "the",
        "y"
      ],
      [
        "an",
        "t"
      ],
      [
        "en",
        "d"
      ],
      [
        "ar",
        "t"
      ],
      [
        "th",
        "rou"
      ],
      [
        "es",
        "s"
      ],
      [
        "him",
        "self"
      ],
      [
        "ro",
        "om"
      ],
      [
        "so",
        "me"
      ],
      [
        "we",
        "re"
      ],
      [
        "paint",
        "ing"
      ],
      [
        "wh",
        "o"
      ],
      [
        "und",
        "er"
      ],
      [
        "throu",
        "gh"
      ],
      [
        "a",
        "f"
      ],
      [
        "b",
        "ack"
      ],
      [
        "c",
        "ha"
      ],
      [
        "c",
        "on"
      ],
      [
        "e",
        "l"
      ],
      [
        "f",
        "a"
      ],
      [
        "f",
        "t"
      ],
      [
        "h",
        "o"
      ],
      [
        "h",
        "ou"
      ],
      [
        "i",
        "l"
      ],
      [
        "i",
        "ous"
      ],
      [
        "j",
        "e"
      ],
      [
        "k",
        "ne"
      ],
      [
        "l",
        "it"
      ],
      [
        "m",
        "ed"
      ],
      [
        "p",
        "r"
      ],
      [
        "p",
        "s"
      ],
      [
        "p",
        "le"
      ],
      [
        "r",
        "y"
      ],
      [
        "t",
        "a"
      ],
      [
        "u",
        "n"
      ],
      [
        "the",
        "re"
      ],
      [
        "ha",
        "nd"
      ],
      [
        "an",
        "ce"
      ],
      [
        "it",
        "e"
      ],
      [
        "at",
        "e"
      ],
      [
        "be",
        "t"
      ],
      [
        "li",
        "ke"
      ],
      [
        "fac",
        "t"
      ],
      [
        "could",
        "n"
      ],
      [
        "did",
        "n"
      ],
      [
        "ey",
        "es"
      ],
      [
        "thou",
        "ght"
      ],
      [
        "R",
        "ick"
      ],
      [
        "b",
        "le"
      ],
      [
        "c",
        "an"
      ],
      [
        "f",
        "ro"
      ],
      [
        "l",
        "a"
      ],
      [
        "l",
        "t"
      ],
      [
        "l",
        "ing"
      ],
      [
        "o",
        "ve"
      ],
      [
        "p",
        "er"
      ],
      [
        "p",
        "ut"
      ],
      [
        "s",
        "ent"
      ],
      [
        "u",
        "m"
      ],
      [
        "w",
        "i"
      ],
      [
        "w",
        "ing"
      ],
      [
        "w",
        "at"
      ],
      [
        "ha",
        "m"
      ],
      [
        "re",
        "st"
      ],
      [
        "an",
        "y"
      ],
      [
        "to",
        "o"
      ],
      [
        "at",
        "h"
      ],
      [
        "li",
        "ght"
      ],
      [
        "su",
        "ch"
      ],
      [
        "fe",
        "lt"
      ],
      [
        "all",
        "y"
      ],
      [
        "sh",
        "ow"
      ],
      [
        "our",
        "se"
      ],
      [
        "au",
        "se"
      ],
      [
        "ag",
        "ain"
      ],
      [
        "fo",
        "re"
      ],
      [
        "bec",
        "ause"
      ],
      [
        "kne",
        "w"
      ],
      [
        "Rick",
        "ham"
      ],
      [
        "fro",
        "m"
      ],
      [
        "!",
        "\""
      ],
      [
        "G",
        "r"
      ],
      [
        "W",
        "ell"
      ],
      [
        "b",
        "r"
      ],
      [
        "b",
        "je"
      ],
      [
        "c",
        "om"
      ],
      [
        "c",
        "ourse"
      ],
      [
        "d",
        "ra"
      ],
      [
        "e",
        "k"
      ],
      [
        "e",
        "as"
      ],
      [
        "f",
        "ou"
      ],
      [
        "f",
        "ir"
      ],
      [
        "g",
        "et"
      ],
      [
        "g",
        "iv"
      ],
      [
        "h",
        "ow"
      ],
      [
        "i",
        "ed"
      ],
      [
        "i",
        "ll"
      ],
      [
        "l",
        "au"
      ],
      [
        "m",
        "in"
      ],
      [
        "p",
        "ro"
      ],
      [
        "s",
        "p"
      ],
      [
        "s",
        "s"
      ],
      [
        "s",
        "it"
      ],
      [
        "s",
        "to"
      ],
      [
        "s",
        "we"
      ],
      [
        "t",
        "le"
      ],
      [
        "w",
        "ent"
      ],
      [
        "w",
        "om"
      ],
      [
        "w",
        "ant"
      ],
      [
        "he",
        "d"
      ],
      [
        "in",
        "t"
      ],
      [
        "in",
        "to"
      ],
      [
        "the",
        "ir"
      ],
      [
        "an",
        "c"
      ],
      [
        "to",
        "ld"
      ],
      [
        "st",
        "ra"
      ],
      [
        "st",
        "ro"
      ],
      [
        "ar",
        "m"
      ],
      [
        "ar",
        "s"
      ],
      [
        "de",
        "ad"
      ],
      [
        "ra",
        "ther"
      ],
      [
        "al",
        "way"
      ],
      [
        "ke",
        "y"
      ],
      [
        "ch",
        "ing"
      ],
      [
        "we",
        "en"
      ],
      [
        "ct",
        "ed"
      ],
      [
        "paint",
        "ed"
      ],
      [
        "ind",
        "le"
      ],
      [
        "picture",
        "s"
      ],
      [
        "fac",
        "e"
      ],
      [
        "ation",
        "s"
      ],
      [
        "ri",
        "ed"
      ],
      [
        "don",
        "key"
      ],
      [
        "las",
        "t"
      ],
      [
        "wor",
        "k"
      ],
      [
        "af",
        "ter"
      ],
      [
        "lit",
        "tle"
      ],
      [
        "bet",
        "ween"
      ],
      [
        "Gr",
        "indle"
      ],
      [
        "bje",
        "ct"
      ],
      [
        "fou",
        "nd"
      ],
      [
        "fir",
        "st"
      ],
      [
        "giv",
        "en"
      ],
      [
        "alway",
        "s"
      ],
      [
        "O",
        "f"
      ],
      [
        "O",
        "h"
      ],
      [
        "O",
        "n"
      ],
      [
        "Y",
        "es"
      ],
      [
        "a",
        "de"
      ],
      [
        "c",
        "ked"
      ],
      [
        "d",
        "d"
      ],
      [
        "d",
        "ay"
      ],
      [
        "d",
        "one"
      ],
      [
        "f",
        "ra"
      ],
      [
        "i",
        "de"
      ],
      [
        "l",
        "at"
      ],
      [
        "l",
        "ic"
      ],
      [
        "m",
        "ent"
      ],
      [
        "p",
        "u"
      ],
      [
        "p",
        "as"
      ],
      [
        "p",
        "or"
      ],
      [
        "r",
        "of"
      ],
      [
        "s",
        "im"
      ],
      [
        "t",
        "urn"
      ],
      [
        "w",
        "on"
      ],
      [
        "he",
        "ad"
      ],
      [
        "in",
        "k"
      ],
      [
        "ha",
        "pp"
      ],
      [
        "ou",
        "gh"
      ],
      [
        "it",
        "s"
      ],
      [
        "en",
        "ough"
      ],
      [
        "st",
        "and"
      ],
      [
        "at",
        "ing"
      ],
      [
        "be",
        "g"
      ],
      [
        "ll",
        "ow"
      ],
      [
        "de",
        "st"
      ],
      [
        "no",
        "te"
      ],
      [
        "te",
        "ll"
      ],
      [
        "ke",
        "t"
      ],
      [
        "ne",
        "ar"
      ],
      [
        "sa",
        "w"
      ],
      [
        "sh",
        "ould"
      ],
      [
        "mo",
        "re"
      ],
      [
        "ti",
        "ll"
      ],
      [
        "whe",
        "re"
      ],
      [
        "mi",
        "ght"
      ],
      [
        "go",
        "od"
      ],
      [
        "loo",
        "ked"
      ],
      [
        "tra",
        "it"
      ],
      [
        "hou",
        "se"
      ],
      [
        "pr",
        "is"
      ],
      [
        "wi",
        "fe"
      ],
      [
        "wat",
        "ching"
      ],
      [
        "por",
        "trait"
      ],
      [
        "turn",
        "ed"
      ],
      [
        "happ",
        "en"
      ],
      [
        "C",
        "rof"
      ],
      [
        "H",
        "is"
      ],
      [
        "T",
        "h"
      ],
      [
        "W",
        "he"
      ],
      [
        "a",
        "p"
      ],
      [
        "b",
        "re"
      ],
      [
        "c",
        "k"
      ],
      [
        "c",
        "ou"
      ],
      [
        "c",
        "re"
      ],
      [
        "c",
        "or"
      ],
      [
        "c",
        "us"
      ],
      [
        "e",
        "f"
      ],
      [
        "e",
        "p"
      ],
      [
        "f",
        "l"
      ],
      [
        "g",
        "g"
      ],
      [
        "h",
        "ind"
      ],
      [
        "i",
        "e"
      ],
      [
        "i",
        "o"
      ],
      [
        "i",
        "ght"
      ],
      [
        "k",
        "en"
      ],
      [
        "l",
        "ve"
      ],
      [
        "l",
        "ong"
      ],
      [
        "m",
        "b"
      ],
      [
        "m",
        "ar"
      ],
      [
        "n",
        "ever"
      ],
      [
        "n",
        "ess"
      ],
      [
        "o",
        "ld"
      ],
      [
        "o",
        "bject"
      ],
      [
        "p",
        "a"
      ],
      [
        "p",
        "t"
      ],
      [
        "p",
        "an"
      ],
      [
        "s",
        "ing"
      ],
      [
        "s",
        "at"
      ],
      [
        "s",
        "mi"
      ],
      [
        "s",
        "ket"
      ],
      [
        "t",
        "en"
      ],
      [
        "t",
        "ain"
      ],
      [
        "v",
        "ed"
      ],
      [
        "y",
        "e"
      ],
      [
        "he",
        "re"
      ],
      [
        "he",
        "ar"
      ],
      [
        "in",
        "te"
      ],
      [
        "in",
        "ce"
      ],
      [
        "the",
        "m"
      ],
      [
        "ha",
        "v"
      ],
      [
        "ha",
        "lf"
      ],
      [
        "is",
        "s"
      ],
      [
        "to",
        "ry"
      ],
      [
        "en",
        "e"
      ],
      [
        "of",
        "f"
      ],
      [
        "er",
        "s"
      ],
      [
        "st",
        "ill"
      ],
      [
        "at",
        "t"
      ],
      [
        "at",
        "ed"
      ],
      [
        "se",
        "t"
      ],
      [
        "le",
        "t"
      ],
      [
        "be",
        "ing"
      ],
      [
        "be",
        "hind"
      ],
      [
        "ic",
        "h"
      ],
      [
        "de",
        "ar"
      ],
      [
        "th",
        "re"
      ],
      [
        "th",
        "ink"
      ],
      [
        "my",
        "self"
      ],
      [
        "ab",
        "ove"
      ],
      [
        "li",
        "fe"
      ],
      [
        "you",
        "r"
      ],
      [
        "fe",
        "ct"
      ],
      [
        "ev",
        "en"
      ],
      [
        "ne",
        "x"
      ],
      [
        "mo",
        "dest"
      ],
      [
        "mo",
        "ved"
      ],
      [
        "ag",
        "e"
      ],
      [
        "po",
        "or"
      ],
      [
        "po",
        "int"
      ],
      [
        "go",
        "t"
      ],
      [
        "ive",
        "ly"
      ],
      [
        "pe",
        "cted"
      ],
      [
        "loo",
        "king"
      ],
      [
        "pl",
        "ac"
      ],
      [
        "gl",
        "or"
      ],
      [
        "gre",
        "at"
      ],
      [
        "rac",
        "e"
      ],
      [
        "sur",
        "pris"
      ],
      [
        "cha",
        "ir"
      ],
      [
        "fa",
        "il"
      ],
      [
        "la",
        "id"
      ],
      [
        "rest",
        "ing"
      ],
      [
        "show",
        "y"
      ],
      [
        "ek",
        "s"
      ],
      [
        "sit",
        "ter"
      ],
      [
        "wom",
        "en"
      ],
      [
        "beg",
        "an"
      ],
      [
        "Crof",
        "t"
      ],
      [
        "Th",
        "wing"
      ],
      [
        "Whe",
        "n"
      ],
      [
        "sat",
        "is"
      ],
      [
        "sket",
        "ch"
      ],
      [
        "inte",
        "resting"
      ],
      [
        "\"",
        "--"
      ],
      [
        "B",
        "e"
      ],
      [
        "F",
        "or"
      ],
      [
        "H",
        "er"
      ],
      [
        "I",
        "f"
      ],
      [
        "J",
        "ove"
      ],
      [
        "M",
        "y"
      ],
      [
        "M",
        "iss"
      ],
      [
        "P",
        "o"
      ],
      [
        "R",
        "iv"
      ],
      [
        "T",
        "o"
      ],
      [
        "T",
        "hat"
      ],
      [
        "Y",
        "ou"
      ],
      [
        "a",
        "me"
      ],
      [
        "a",
        "ve"
      ],
      [
        "a",
        "ir"
      ],
      [
        "a",
        "way"
      ],
      [
        "b",
        "ed"
      ],
      [
        "b",
        "and"
      ],
      [
        "b",
        "al"
      ],
      [
        "b",
        "ene"
      ],
      [
        "c",
        "r"
      ],
      [
        "c",
        "ing"
      ],
      [
        "c",
        "le"
      ],
      [
        "c",
        "ir"
      ],
      [
        "c",
        "ent"
      ],
      [
        "c",
        "all"
      ],
      [
        "c",
        "lo"
      ],
      [
        "c",
        "ig"
      ],
      [
        "c",
        "ating"
      ],
      [
        "d",
        "ed"
      ],
      [
        "d",
        "er"
      ],
      [
        "f",
        "le"
      ],
      [
        "f",
        "ul"
      ],
      [
        "g",
        "ar"
      ],
      [
        "g",
        "ra"
      ],
      [
        "g",
        "ive"
      ],
      [
        "h",
        "on"
      ],
      [
        "h",
        "us"
      ],
      [
        "i",
        "re"
      ],
      [
        "i",
        "er"
      ],
      [
        "i",
        "gh"
      ],
      [
        "i",
        "es"
      ],
      [
        "k",
        "ind"
      ],
      [
        "l",
        "u"
      ],
      [
        "l",
        "in"
      ],
      [
        "l",
        "ed"
      ],
      [
        "l",
        "and"
      ],
      [
        "l",
        "ay"
      ],
      [
        "m",
        "u"
      ],
      [
        "m",
        "ust"
      ],
      [
        "m",
        "ade"
      ],
      [
        "n",
        "g"
      ],
      [
        "n",
        "er"
      ],
      [
        "o",
        "c"
      ],
      [
        "o",
        "ther"
      ],
      [
        "o",
        "ver"
      ],
      [
        "o",
        "ple"
      ],
      [
        "p",
        "ing"
      ],
      [
        "p",
        "ie"
      ],
      [
        "r",
        "d"
      ],
      [
        "r",
        "ow"
      ],
      [
        "s",
        "en"
      ],
      [
        "s",
        "ity"
      ],
      [
        "s",
        "ince"
      ],
      [
        "t",
        "r"
      ],
      [
        "t",
        "on"
      ],
      [
        "t",
        "his"
      ],
      [
        "t",
        "ic"
      ],
      [
        "t",
        "able"
      ],
      [
        "u",
        "cked"
      ],
      [
        "v",
        "as"
      ],
      [
        "w",
        "ard"
      ],
      [
        "he",
        "ard"
      ],
      [
        "in",
        "st"
      ],
      [
        "the",
        "n"
      ],
      [
        "ha",
        "rd"
      ],
      [
        "re",
        "as"
      ],
      [
        "re",
        "nt"
      ],
      [
        "re",
        "ally"
      ],
      [
        "an",
        "g"
      ],
      [
        "on",
        "ce"
      ],
      [
        "it",
        "u"
      ],
      [
        "it",
        "ies"
      ],
      [
        "is",
        "h"
      ],
      [
        "is",
        "ed"
      ],
      [
        "en",
        "ly"
      ],
      [
        "st",
        "r"
      ],
      [
        "--",
        "\""
      ],
      [
        "se",
        "en"
      ],
      [
        "se",
        "cre"
      ],
      [
        "le",
        "ft"
      ],
      [
        "be",
        "fore"
      ],
      [
        "his",
        "tory"
      ],
      [
        "ic",
        "e"
      ],
      [
        "ur",
        "y"
      ],
      [
        "de",
        "pre"
      ],
      [
        "de",
        "lic"
      ],
      [
        "ro",
        "se"
      ],
      [
        "ut",
        "e"
      ],
      [
        "al",
        "ity"
      ],
      [
        "ir",
        "on"
      ],
      [
        "li",
        "ft"
      ],
      [
        "li",
        "ps"
      ],
      [
        "with",
        "out"
      ],
      [
        "te",
        "l"
      ],
      [
        "te",
        "en"
      ],
      [
        "su",
        "n"
      ],
      [
        "ch",
        "ucked"
      ],
      [
        "her",
        "self"
      ],
      [
        "she",
        "d"
      ],
      [
        "The",
        "re"
      ],
      [
        "ct",
        "ion"
      ],
      [
        "qu",
        "est"
      ],
      [
        "mo",
        "st"
      ],
      [
        "wh",
        "y"
      ],
      [
        "ti",
        "me"
      ],
      [
        "ever",
        "y"
      ],
      [
        "see",
        "med"
      ],
      [
        "pe",
        "ople"
      ],
      [
        "thing",
        "s"
      ],
      [
        "co",
        "me"
      ],
      [
        "fo",
        "llow"
      ],
      [
        "would",
        "n"
      ],
      [
        "loo",
        "k"
      ],
      [
        "man",
        "age"
      ],
      [
        "pl",
        "ain"
      ],
      [
        "pp",
        "ed"
      ],
      [
        "gl",
        "anc"
      ],
      [
        "che",
        "d"
      ],
      [
        "cur",
        "tain"
      ],
      [
        "ig",
        "n"
      ],
      [
        "room",
        "s"
      ],
      [
        "ta",
        "ken"
      ],
      [
        "un",
        "g"
      ],
      [
        "hand",
        "some"
      ],
      [
        "dra",
        "wing"
      ],
      [
        "eas",
        "el"
      ],
      [
        "lau",
        "gh"
      ],
      [
        "min",
        "e"
      ],
      [
        "sto",
        "od"
      ],
      [
        "stro",
        "ke"
      ],
      [
        "found",
        "ations"
      ],
      [
        "On",
        "ly"
      ],
      [
        "dd",
        "enly"
      ],
      [
        "fra",
        "me"
      ],
      [
        "pu",
        "shed"
      ],
      [
        "sim",
        "p"
      ],
      [
        "won",
        "der"
      ],
      [
        "happen",
        "ed"
      ],
      [
        "cou",
        "nt"
      ],
      [
        "gg",
        "ed"
      ],
      [
        "mar",
        "ried"
      ],
      [
        "smi",
        "le"
      ],
      [
        "ye",
        "ars"
      ],
      [
        "hav",
        "ing"
      ],
      [
        "modest",
        "y"
      ],
      [
        "glor",
        "y"
      ],
      [
        "surpris",
        "e"
      ],
      [
        "sitter",
        "s"
      ],
      [
        "Po",
        "or"
      ],
      [
        "Riv",
        "ier"
      ],
      [
        "bene",
        "ath"
      ],
      [
        "call",
        "ed"
      ],
      [
        "hon",
        "our"
      ],
      [
        "hus",
        "band"
      ],
      [
        "pie",
        "ce"
      ],
      [
        "secre",
        "t"
      ],
      [
        "depre",
        "cating"
      ],
      [
        "delic",
        "ate"
      ],
      [
        "quest",
        "ion"
      ],
      [
        "glanc",
        "ed"
      ],
      [
        "curtain",
        "s"
      ],
      [
        "Rivier",
        "a"
      ],
      [
        "A",
        "h"
      ],
      [
        "B",
        "y"
      ],
      [
        "C",
        "ar"
      ],
      [
        "D",
        "u"
      ],
      [
        "D",
        "on"
      ],
      [
        "M",
        "r"
      ],
      [
        "M",
        "on"
      ],
      [
        "N",
        "ever"
      ],
      [
        "V",
        "ic"
      ],
      [
        "W",
        "h"
      ],
      [
        "W",
        "hat"
      ],
      [
        "_",
        "was"
      ],
      [
        "_",
        "that"
      ],
      [
        "_",
        "rose"
      ],
      [
        "a",
        "k"
      ],
      [
        "a",
        "z"
      ],
      [
        "a",
        "ut"
      ],
      [
        "a",
        "red"
      ],
      [
        "a",
        "ther"
      ],
      [
        "a",
        "pp"
      ],
      [
        "a",
        "king"
      ],
      [
        "b",
        "u"
      ],
      [
        "b",
        "or"
      ],
      [
        "b",
        "ar"
      ],
      [
        "b",
        "rou"
      ],
      [
        "b",
        "ru"
      ],
      [
        "b",
        "lic"
      ],
      [
        "c",
        "u"
      ],
      [
        "c",
        "ure"
      ],
      [
        "c",
        "au"
      ],
      [
        "c",
        "are"
      ],
      [
        "c",
        "ul"
      ],
      [
        "c",
        "ry"
      ],
      [
        "c",
        "la"
      ],
      [
        "d",
        "u"
      ],
      [
        "d",
        "re"
      ],
      [
        "d",
        "ic"
      ],
      [
        "d",
        "im"
      ],
      [
        "d",
        "ain"
      ],
      [
        "d",
        "ro"
      ],
      [
        "d",
        "ab"
      ],
      [
        "d",
        "ity"
      ],
      [
        "d",
        "ied"
      ],
      [
        "e",
        "qu"
      ],
      [
        "e",
        "red"
      ],
      [
        "e",
        "igh"
      ],
      [
        "f",
        "on"
      ],
      [
        "f",
        "it"
      ],
      [
        "f",
        "as"
      ],
      [
        "f",
        "ur"
      ],
      [
        "f",
        "id"
      ],
      [
        "f",
        "las"
      ],
      [
        "f",
        "ied"
      ],
      [
        "g",
        "en"
      ],
      [
        "g",
        "ro"
      ],
      [
        "g",
        "hed"
      ],
      [
        "g",
        "ment"
      ],
      [
        "h",
        "ion"
      ],
      [
        "h",
        "um"
      ],
      [
        "h",
        "ung"
      ],
      [
        "i",
        "ble"
      ],
      [
        "l",
        "our"
      ],
      [
        "l",
        "ate"
      ],
      [
        "m",
        "p"
      ],
      [
        "m",
        "ing"
      ],
      [
        "m",
        "ur"
      ],
      [
        "m",
        "om"
      ],
      [
        "m",
        "our"
      ],
      [
        "n",
        "ed"
      ],
      [
        "n",
        "ic"
      ],
      [
        "o",
        "h"
      ],
      [
        "o",
        "se"
      ],
      [
        "o",
        "me"
      ],
      [
        "p",
        "at"
      ],
      [
        "p",
        "ar"
      ],
      [
        "p",
        "al"
      ],
      [
        "p",
        "ri"
      ],
      [
        "r",
        "as"
      ],
      [
        "r",
        "id"
      ],
      [
        "r",
        "ich"
      ],
      [
        "s",
        "m"
      ],
      [
        "s",
        "w"
      ],
      [
        "s",
        "ha"
      ],
      [
        "s",
        "is"
      ],
      [
        "s",
        "er"
      ],
      [
        "s",
        "se"
      ],
      [
        "s",
        "pe"
      ],
      [
        "s",
        "il"
      ],
      [
        "s",
        "light"
      ],
      [
        "s",
        "cor"
      ],
      [
        "s",
        "ign"
      ],
      [
        "t",
        "s"
      ],
      [
        "t",
        "u"
      ],
      [
        "t",
        "w"
      ],
      [
        "t",
        "y"
      ],
      [
        "t",
        "ha"
      ],
      [
        "t",
        "one"
      ],
      [
        "t",
        "ri"
      ],
      [
        "t",
        "ru"
      ],
      [
        "t",
        "rac"
      ],
      [
        "t",
        "went"
      ],
      [
        "t",
        "ried"
      ],
      [
        "u",
        "su"
      ],
      [
        "u",
        "nex"
      ],
      [
        "v",
        "is"
      ],
      [
        "v",
        "al"
      ],
      [
        "v",
        "ind"
      ],
      [
        "v",
        "ous"
      ],
      [
        "v",
        "ance"
      ],
      [
        "v",
        "oc"
      ],
      [
        "w",
        "in"
      ],
      [
        "w",
        "all"
      ],
      [
        "y",
        "ed"
      ],
      [
        "y",
        "et"
      ],
      [
        "he",
        "art"
      ],
      [
        "he",
        "ight"
      ],
      [
        "in",
        "ing"
      ],
      [
        "in",
        "ev"
      ],
      [
        "in",
        "ct"
      ],
      [
        "ou",
        "red"
      ],
      [
        "ou",
        "ched"
      ],
      [
        "re",
        "m"
      ],
      [
        "re",
        "s"
      ],
      [
        "re",
        "me"
      ],
      [
        "re",
        "so"
      ],
      [
        "re",
        "am"
      ],
      [
        "re",
        "fle"
      ],
      [
        "an",
        "swe"
      ],
      [
        "is",
        "t"
      ],
      [
        "is",
        "ite"
      ],
      [
        "is",
        "hed"
      ],
      [
        "as",
        "ked"
      ],
      [
        "to",
        "r"
      ],
      [
        "st",
        "u"
      ],
      [
        "st",
        "ay"
      ],
      [
        "st",
        "ru"
      ],
      [
        "st",
        "ess"
      ],
      [
        "st",
        "air"
      ],
      [
        "st",
        "ream"
      ],
      [
        "or",
        "s"
      ],
      [
        "le",
        "as"
      ],
      [
        "be",
        "s"
      ],
      [
        "be",
        "ar"
      ],
      [
        "be",
        "li"
      ],
      [
        "be",
        "ard"
      ],
      [
        "be",
        "aut"
      ],
      [
        "ar",
        "y"
      ],
      [
        "me",
        "t"
      ],
      [
        "me",
        "re"
      ],
      [
        "me",
        "st"
      ],
      [
        "ll",
        "ed"
      ],
      [
        "ve",
        "red"
      ],
      [
        "ic",
        "ul"
      ],
      [
        "ic",
        "ated"
      ],
      [
        "im",
        "in"
      ],
      [
        "ur",
        "b"
      ],
      [
        "de",
        "s"
      ],
      [
        "de",
        "gre"
      ],
      [
        "de",
        "ep"
      ],
      [
        "th",
        "ose"
      ],
      [
        "es",
        "n"
      ],
      [
        "ra",
        "l"
      ],
      [
        "ra",
        "ft"
      ],
      [
        "ro",
        "ss"
      ],
      [
        "ab",
        "sur"
      ],
      [
        "ab",
        "dic"
      ],
      [
        "al",
        "one"
      ],
      [
        "al",
        "ous"
      ],
      [
        "al",
        "ive"
      ],
      [
        "al",
        "ities"
      ],
      [
        "one",
        "y"
      ],
      [
        "ir",
        "re"
      ],
      [
        "li",
        "ked"
      ],
      [
        "ent",
        "ly"
      ],
      [
        "ent",
        "ion"
      ],
      [
        "rou",
        "nd"
      ],
      [
        "te",
        "ch"
      ],
      [
        "te",
        "ars"
      ],
      [
        "su",
        "b"
      ],
      [
        "su",
        "bject"
      ],
      [
        "su",
        "ddenly"
      ],
      [
        "fe",
        "w"
      ],
      [
        "fe",
        "llow"
      ],
      [
        "so",
        "l"
      ],
      [
        "ev",
        "ed"
      ],
      [
        "ter",
        "race"
      ],
      [
        "we",
        "eks"
      ],
      [
        "ad",
        "ded"
      ],
      [
        "pain",
        "ter"
      ],
      [
        "The",
        "n"
      ],
      [
        "sh",
        "ru"
      ],
      [
        "qu",
        "e"
      ],
      [
        "qu",
        "ite"
      ],
      [
        "qu",
        "ality"
      ],
      [
        "qu",
        "isite"
      ],
      [
        "Stroud",
        "s"
      ],
      [
        "wh",
        "ite"
      ],
      [
        "wh",
        "ich"
      ],
      [
        "ti",
        "red"
      ],
      [
        "ever",
        "las"
      ],
      [
        "ag",
        "o"
      ],
      [
        "mi",
        "a"
      ],
      [
        "po",
        "sing"
      ],
      [
        "say",
        "s"
      ],
      [
        "dis",
        "pl"
      ],
      [
        "dis",
        "satis"
      ],
      [
        "dis",
        "dain"
      ],
      [
        "et",
        "ly"
      ],
      [
        "am",
        "ong"
      ],
      [
        "co",
        "ver"
      ],
      [
        "co",
        "lour"
      ],
      [
        "co",
        "vered"
      ],
      [
        "ex",
        "quisite"
      ],
      [
        "man",
        "tel"
      ],
      [
        "ong",
        "est"
      ],
      [
        "ey",
        "e"
      ],
      [
        "gl",
        "ad"
      ],
      [
        "gre",
        "w"
      ],
      [
        "pre",
        "sent"
      ],
      [
        "wor",
        "d"
      ],
      [
        "bec",
        "ame"
      ],
      [
        "ick",
        "s"
      ],
      [
        "thou",
        "gh"
      ],
      [
        "are",
        "nt"
      ],
      [
        "che",
        "eks"
      ],
      [
        "cur",
        "io"
      ],
      [
        "cur",
        "rent"
      ],
      [
        "do",
        "esn"
      ],
      [
        "tra",
        "ps"
      ],
      [
        "who",
        "le"
      ],
      [
        "under",
        "stand"
      ],
      [
        "con",
        "t"
      ],
      [
        "con",
        "fid"
      ],
      [
        "el",
        "se"
      ],
      [
        "fa",
        "mi"
      ],
      [
        "ho",
        "stess"
      ],
      [
        "je",
        "alous"
      ],
      [
        "med",
        "i"
      ],
      [
        "ry",
        "_"
      ],
      [
        "bet",
        "ter"
      ],
      [
        "fact",
        "ion"
      ],
      [
        "can",
        "vas"
      ],
      [
        "any",
        "thing"
      ],
      [
        "ath",
        "ing"
      ],
      [
        "br",
        "own"
      ],
      [
        "com",
        "ing"
      ],
      [
        "dra",
        "gged"
      ],
      [
        "eas",
        "e"
      ],
      [
        "get",
        "ting"
      ],
      [
        "lau",
        "ghed"
      ],
      [
        "sp",
        "ite"
      ],
      [
        "wom",
        "an"
      ],
      [
        "want",
        "ed"
      ],
      [
        "dd",
        "ling"
      ],
      [
        "day",
        "s"
      ],
      [
        "fra",
        "gment"
      ],
      [
        "ide",
        "a"
      ],
      [
        "lat",
        "er"
      ]
    ]
  }
}